/***************************************************************************//**
* \file MAGIC_WAND_ifx_model_int16x8.c
*
* \brief
* Autogenerated with ml-coretools, this file contains MAGIC_WAND model data.
* Date: 2023-01-17 16:43:47.094547
*******************************************************************************
* \copyright
* Copyright 2023, Cypress Semiconductor Corporation (an Infineon company).
* All rights reserved.
* You may use this file only in accordance with the license, terms, conditions,
* disclaimers, and limitations in the end user license agreement accompanying
* the software package with which this file was provided.
******************************************************************************/


#include "MAGIC_WAND_ifx_model_int16x8.h"


const uint8_t MAGIC_WAND_model_prms_bin[] __attribute__((aligned(4))) = {
  0x00, 0x00, 0x02, 0x00, 0x00, 0xea, 0x00, 0x00, 0x00, 0xc0, 0x00, 0x00,
  0x00, 0x2a, 0x00, 0x00, 0x28, 0x81, 0x00, 0x00, 0x00, 0x60, 0x00, 0x00,
  0x00, 0x15, 0x00, 0x00, 0x00, 0x03, 0x00, 0x00, 0x00, 0x00, 0x00, 0x00,
  0x00, 0x00, 0x00, 0x00, 0xb7, 0x1d, 0xc1, 0x04, 0x9c, 0x46, 0x00, 0x00,
  0x02, 0x00, 0x00, 0x00, 0x08, 0x00, 0x00, 0x00, 0x01, 0x00, 0x00, 0x00,
  0x08, 0x00, 0x00, 0x00, 0x09, 0x00, 0x00, 0x00, 0x01, 0x00, 0x00, 0x00,
  0x08, 0x00, 0x00, 0x00, 0x0f, 0x00, 0x00, 0x00, 0x00, 0x00, 0x00, 0x00,
  0x00, 0x00, 0x00, 0x00, 0x00, 0x00, 0x00, 0x00, 0xff, 0xff, 0xff, 0xff,
  0xff, 0xff, 0xff, 0xff, 0x00, 0x00, 0x00, 0x00, 0xff, 0xff, 0xff, 0xff,
  0xff, 0xff, 0xff, 0xff, 0x00, 0x00, 0x00, 0x00, 0x02, 0x00, 0x00, 0x00,
  0x10, 0x00, 0x01, 0x00, 0x02, 0x00, 0x05, 0x00, 0x01, 0x00, 0x01, 0x00,
  0x01, 0x00, 0x01, 0x00, 0x40, 0x00, 0x00, 0x00, 0x80, 0x00, 0x00, 0x00,
  0x06, 0x00, 0x00, 0x00, 0x01, 0x00, 0x00, 0x00, 0x10, 0x00, 0x00, 0x00,
  0x01, 0x00, 0x00, 0x00, 0x01, 0x00, 0x00, 0x00, 0x03, 0x00, 0x00, 0x00,
  0x03, 0x00, 0x00, 0x00, 0x01, 0x00, 0x00, 0x00, 0x01, 0x00, 0x00, 0x00,
  0x01, 0x00, 0x00, 0x00, 0x01, 0x00, 0x00, 0x00, 0x80, 0x00, 0x00, 0x00,
  0x06, 0x00, 0x00, 0x00, 0x10, 0x00, 0x00, 0x00, 0x00, 0x30, 0x00, 0x00,
  0x38, 0x00, 0x00, 0x00, 0x03, 0x00, 0x00, 0x00, 0x03, 0x00, 0x00, 0x00,
  0x80, 0x00, 0x00, 0x00, 0x06, 0x00, 0x00, 0x00, 0x10, 0x00, 0x00, 0x00,
  0x03, 0x00, 0x00, 0x00, 0x03, 0x00, 0x00, 0x00, 0x2a, 0x00, 0x00, 0x00,
  0x02, 0x00, 0x00, 0x00, 0x10, 0x00, 0x00, 0x00, 0x00, 0x00, 0x00, 0x00,
  0x00, 0x00, 0x00, 0x00, 0x00, 0x00, 0x00, 0x00, 0x00, 0x00, 0x00, 0x00,
  0x10, 0x00, 0x00, 0x00, 0x2a, 0x00, 0x00, 0x00, 0x02, 0x00, 0x00, 0x00,
  0x10, 0x00, 0x00, 0x00, 0x01, 0x00, 0x00, 0x00, 0x40, 0x00, 0x00, 0x00,
  0x2a, 0x00, 0x00, 0x00, 0x02, 0x00, 0x00, 0x00, 0x10, 0x00, 0x00, 0x00,
  0x20, 0x00, 0x00, 0x00, 0x01, 0x00, 0x00, 0x00, 0x01, 0x00, 0x00, 0x00,
  0x03, 0x00, 0x00, 0x00, 0x03, 0x00, 0x00, 0x00, 0x01, 0x00, 0x00, 0x00,
  0x01, 0x00, 0x00, 0x00, 0x01, 0x00, 0x00, 0x00, 0x01, 0x00, 0x00, 0x00,
  0x2a, 0x00, 0x00, 0x00, 0x02, 0x00, 0x00, 0x00, 0x20, 0x00, 0x00, 0x00,
  0x80, 0x0a, 0x00, 0x00, 0x38, 0x00, 0x00, 0x00, 0x03, 0x00, 0x00, 0x00,
  0x01, 0x00, 0x00, 0x00, 0x2a, 0x00, 0x00, 0x00, 0x02, 0x00, 0x00, 0x00,
  0x20, 0x00, 0x00, 0x00, 0x03, 0x00, 0x00, 0x00, 0x01, 0x00, 0x00, 0x00,
  0x0e, 0x00, 0x00, 0x00, 0x02, 0x00, 0x00, 0x00, 0x20, 0x00, 0x00, 0x00,
  0x00, 0x00, 0x00, 0x00, 0x00, 0x00, 0x00, 0x00, 0x00, 0x00, 0x00, 0x00,
  0x00, 0x00, 0x00, 0x00, 0x0c, 0x00, 0x00, 0x00, 0x0e, 0x00, 0x00, 0x00,
  0x02, 0x00, 0x00, 0x00, 0x20, 0x00, 0x00, 0x00, 0x08, 0x00, 0x00, 0x00,
  0x20, 0x00, 0x00, 0x00, 0x10, 0x00, 0x00, 0x00, 0x08, 0x00, 0x00, 0x00,
  0x10, 0x00, 0x00, 0x00, 0x04, 0x00, 0x00, 0x00, 0xfb, 0x0d, 0xff, 0xba
};

#ifdef CY_ML_MODEL_MEM
#include "cy_utils.h"
#define Q(x) #x
#define QUOTE(x) Q(x)
CY_SECTION(QUOTE(CY_ML_MODEL_MEM))
const
#endif

uint8_t MAGIC_WAND_model_bin[] __attribute__((aligned(4))) = {
  0x4a, 0x15, 0x00, 0x00, 0x90, 0x00, 0x00, 0x00, 0x04, 0xb4, 0x57, 0x49,
  0xda, 0x20, 0x33, 0xd9, 0xf6, 0x19, 0xe0, 0x5c, 0x0f, 0xde, 0x3d, 0x40,
  0xee, 0x26, 0x03, 0xe1, 0xda, 0x2a, 0xca, 0xc3, 0x41, 0xf6, 0xc8, 0x2b,
  0x52, 0x4d, 0xf2, 0x36, 0x1a, 0x0d, 0x32, 0x18, 0x45, 0x1e, 0x76, 0x45,
  0x02, 0x5e, 0x59, 0x1a, 0x4c, 0x94, 0x08, 0xcc, 0x09, 0xed, 0xe5, 0xed,
  0x05, 0x0d, 0x1e, 0xe6, 0xc1, 0x1e, 0xf1, 0xeb, 0x24, 0xed, 0xd0, 0xc5,
  0x11, 0x35, 0xdb, 0x34, 0x0a, 0xef, 0x49, 0x35, 0x5c, 0xe9, 0xf8, 0x7d,
  0xe3, 0xc5, 0x47, 0x28, 0xb7, 0x0b, 0x3a, 0xc7, 0x16, 0xf4, 0x84, 0xf4,
  0x1b, 0xb4, 0x10, 0x62, 0xc3, 0x06, 0x2a, 0xea, 0xca, 0x2b, 0x1c, 0xfd,
  0x2c, 0xa6, 0xef, 0x0d, 0xbc, 0x1d, 0xe3, 0x8b, 0x0c, 0x6b, 0x52, 0x05,
  0x60, 0x26, 0x0f, 0x78, 0x17, 0x05, 0x13, 0xe7, 0xbb, 0x01, 0x22, 0xc0,
  0xcd, 0xe7, 0x36, 0x04, 0xb5, 0x24, 0x37, 0xda, 0x21, 0x4b, 0xb5, 0x35,
  0x02, 0xf7, 0x19, 0xae, 0xf3, 0x43, 0x15, 0xed, 0x10, 0x00, 0x00, 0x00,
  0x05, 0xc6, 0x11, 0x55, 0x08, 0x22, 0x0c, 0x38, 0x73, 0x00, 0x14, 0x06,
  0x00, 0x5e, 0x71, 0x13, 0x01, 0x00, 0x00, 0x00, 0x00, 0x02, 0x00, 0x00,
  0x00, 0x80, 0x80, 0x02, 0x00, 0x00, 0x00, 0x80, 0x80, 0x01, 0x00, 0x00,
  0x00, 0x00, 0x20, 0x00, 0x00, 0x00, 0x22, 0xfd, 0x46, 0xff, 0x29, 0xfd,
  0x32, 0xfb, 0x36, 0xfe, 0x2a, 0xfc, 0x32, 0xfd, 0x29, 0xfb, 0x2e, 0xf9,
  0x2d, 0xff, 0x34, 0xfd, 0x2b, 0xfe, 0x27, 0xff, 0x27, 0xfa, 0x30, 0xfa,
  0x37, 0xfc, 0x02, 0x00, 0x00, 0x00, 0x80, 0x80, 0x01, 0x00, 0x00, 0x00,
  0x00, 0x00, 0x12, 0x00, 0x00, 0xfe, 0xee, 0x0c, 0x12, 0xfc, 0x05, 0x04,
  0x0a, 0x04, 0x00, 0x0b, 0x05, 0x03, 0x0a, 0x02, 0x11, 0x1b, 0x07, 0xf8,
  0xf6, 0x09, 0xfd, 0xff, 0x05, 0x14, 0x14, 0x04, 0xdf, 0xed, 0xed, 0xf0,
  0xea, 0xec, 0xfd, 0xf9, 0xeb, 0xef, 0xfc, 0xf2, 0xfe, 0xfa, 0xe5, 0x11,
  0xfb, 0xec, 0xff, 0x00, 0x1d, 0x03, 0x0a, 0x09, 0x0d, 0x13, 0x0f, 0xfb,
  0xfd, 0x0f, 0x06, 0x08, 0x0a, 0x10, 0x18, 0x15, 0x03, 0x00, 0x14, 0x05,
  0x1d, 0x0e, 0x22, 0x23, 0xfc, 0xe4, 0xfd, 0x05, 0x08, 0xf5, 0x0f, 0x08,
  0xf7, 0x18, 0x17, 0x12, 0x02, 0x17, 0x07, 0xfb, 0x19, 0x10, 0xf8, 0x04,
  0x1a, 0x09, 0x0d, 0x0d, 0x02, 0x07, 0x0c, 0x10, 0x25, 0x0f, 0x05, 0x0b,
  0x19, 0x01, 0x0b, 0xfe, 0xea, 0xe2, 0xea, 0xea, 0xf8, 0xf5, 0xe0, 0x00,
  0xf1, 0xe0, 0xf8, 0x02, 0x03, 0x10, 0x01, 0x07, 0x1c, 0x0a, 0xff, 0x07,
  0xea, 0xe9, 0x11, 0xff, 0xe4, 0x07, 0x07, 0xdd, 0xfd, 0xff, 0x05, 0x11,
  0xfe, 0xfd, 0x19, 0x19, 0x09, 0x03, 0x05, 0x03, 0x03, 0xfd, 0xfc, 0x01,
  0x02, 0xfe, 0xf8, 0xee, 0xf7, 0xfb, 0xe3, 0xfd, 0xfa, 0xe7, 0xfd, 0xfe,
  0x07, 0xf6, 0xf7, 0x01, 0xfb, 0x01, 0xfa, 0xf9, 0x0e, 0x04, 0xfe, 0xfc,
  0xfe, 0xf2, 0xf9, 0xfd, 0x10, 0xf5, 0x00, 0x10, 0x0e, 0x03, 0x18, 0x07,
  0xf9, 0x1b, 0x07, 0xfe, 0xfb, 0x12, 0xfc, 0xff, 0x01, 0xfd, 0xf8, 0x06,
  0xfc, 0xfb, 0xf8, 0xfd, 0x00, 0x01, 0xf7, 0x00, 0x07, 0x0c, 0xf0, 0xfe,
  0x0f, 0xee, 0x00, 0x0b, 0xf4, 0xce, 0x00, 0x07, 0xd1, 0xff, 0x12, 0xce,
  0xf4, 0x1b, 0x10, 0x06, 0xf3, 0x1e, 0x08, 0xf4, 0x0f, 0x00, 0xf6, 0x06,
  0x0d, 0x0a, 0x0c, 0x10, 0x04, 0x09, 0x14, 0x06, 0x0e, 0xf4, 0xf1, 0x15,
  0x07, 0xf6, 0x0e, 0xf2, 0xe9, 0x13, 0x06, 0x01, 0xfe, 0x0e, 0xf3, 0x02,
  0xf9, 0x05, 0x06, 0xf8, 0xf7, 0x0d, 0x08, 0xf4, 0x0d, 0x04, 0xf2, 0x00,
  0x0b, 0xf8, 0xff, 0x11, 0xff, 0x01, 0xff, 0x08, 0xfd, 0x08, 0x0b, 0xfa,
  0x00, 0x10, 0x01, 0xf8, 0x0c, 0xfa, 0xfc, 0x04, 0xfe, 0xfc, 0x11, 0xfe,
  0xfe, 0xfa, 0xf4, 0xf8, 0x04, 0xf8, 0xf2, 0xee, 0xf9, 0xed, 0xea, 0xf0,
  0x04, 0x01, 0xf4, 0x00, 0xfd, 0xfa, 0x09, 0x04, 0x0a, 0x12, 0x02, 0xf4,
  0x12, 0x0b, 0xfa, 0xf9, 0xf4, 0x15, 0x0c, 0x09, 0x0b, 0x02, 0x16, 0xfd,
  0xfa, 0x15, 0x05, 0xfb, 0xee, 0x08, 0x05, 0xf9, 0x0c, 0x06, 0x01, 0xff,
  0xf9, 0x01, 0x05, 0xff, 0xff, 0xff, 0x07, 0xfe, 0x04, 0x03, 0x02, 0x05,
  0x10, 0xf5, 0x1b, 0x18, 0xf8, 0xd2, 0xfc, 0x0a, 0xcb, 0xee, 0x21, 0xe0,
  0xf1, 0x19, 0xff, 0xfc, 0xe7, 0x08, 0x07, 0xfc, 0x18, 0x0a, 0xec, 0xf2,
  0x07, 0x0a, 0x02, 0x0f, 0x07, 0x07, 0x1a, 0x0b, 0x04, 0xeb, 0xfc, 0x11,
  0x05, 0xed, 0x16, 0x0f, 0xf2, 0x0f, 0x04, 0xfd, 0xfe, 0x06, 0xfb, 0x0b,
  0xf0, 0xf5, 0xf9, 0x03, 0xf7, 0x00, 0x08, 0xef, 0x07, 0x01, 0x01, 0xf4,
  0x16, 0xfb, 0xeb, 0x02, 0x10, 0xf8, 0xf1, 0xfb, 0xea, 0xfb, 0xf7, 0xee,
  0x03, 0x01, 0xfd, 0xfc, 0x0d, 0x06, 0x16, 0x11, 0xe9, 0xfa, 0x01, 0xd2,
  0x03, 0x05, 0x01, 0x19, 0x0d, 0xeb, 0x0d, 0x18, 0x07, 0xf8, 0x1b, 0x0f,
  0x0d, 0xfb, 0xfb, 0x0b, 0x0b, 0xe8, 0x03, 0xf8, 0x03, 0x12, 0xe5, 0x00,
  0x0e, 0xe1, 0xf5, 0x09, 0xe5, 0xfd, 0x15, 0xf0, 0xf9, 0x1d, 0xf3, 0xea,
  0x07, 0xf9, 0x0f, 0x09, 0x03, 0xfa, 0x02, 0x0b, 0xe0, 0x00, 0xfa, 0x1d,
  0x09, 0x0d, 0xfa, 0x12, 0xf8, 0xea, 0x02, 0x01, 0xfa, 0x16, 0x01, 0xfa,
  0xf4, 0x02, 0xf0, 0x12, 0x13, 0x3e, 0x15, 0xf8, 0x41, 0x04, 0xef, 0x36,
  0x18, 0xe4, 0xd3, 0xf2, 0xef, 0xe8, 0xf1, 0xf0, 0x00, 0xe7, 0xe2, 0xe9,
  0xfb, 0x02, 0x03, 0xfe, 0xec, 0xe6, 0x07, 0xf5, 0xe4, 0xff, 0xf6, 0x00,
  0x0d, 0xf1, 0x09, 0xef, 0xf4, 0x0e, 0x05, 0xde, 0x05, 0x02, 0xe6, 0x0f,
  0x0f, 0xdd, 0xfc, 0x07, 0x02, 0xe9, 0xf6, 0x04, 0xe0, 0x06, 0x01, 0xfe,
  0x09, 0xdd, 0xf9, 0x07, 0xe9, 0xf8, 0x09, 0xe9, 0x17, 0x23, 0xfa, 0x07,
  0x07, 0x02, 0xe6, 0xf5, 0x00, 0xf6, 0xee, 0xe4, 0x05, 0xf4, 0xfe, 0xf6,
  0xf9, 0xfc, 0x11, 0x0a, 0xef, 0x00, 0x03, 0xfd, 0xff, 0x06, 0x03, 0xfe,
  0xde, 0xec, 0xfd, 0xf0, 0xf8, 0xf9, 0xef, 0x04, 0xff, 0x0d, 0x07, 0xfd,
  0x1e, 0xfe, 0x02, 0x24, 0xdd, 0xf1, 0xf4, 0xf3, 0xf4, 0x02, 0xf2, 0xe6,
  0xf3, 0xf0, 0xf3, 0xf9, 0xf9, 0xed, 0xe7, 0x06, 0xec, 0xf1, 0xfe, 0xfe,
  0xe6, 0xfc, 0xeb, 0xe5, 0xf9, 0xec, 0xf1, 0xea, 0xe6, 0xef, 0xf9, 0xeb,
  0xf6, 0xf1, 0xe0, 0xee, 0xef, 0x2b, 0x06, 0xe4, 0x2e, 0x00, 0xef, 0x24,
  0x02, 0xf1, 0x0b, 0x10, 0x02, 0xfa, 0x1a, 0x17, 0xfe, 0x0c, 0x12, 0xf9,
  0x1b, 0xf1, 0x14, 0x0b, 0xec, 0x05, 0x0e, 0xfc, 0x06, 0x25, 0x00, 0x06,
  0x0c, 0x19, 0x03, 0x10, 0x1f, 0xec, 0x0e, 0x08, 0xfb, 0x0e, 0x00, 0xf2,
  0x0e, 0xf2, 0x02, 0xf4, 0xf7, 0xec, 0xf5, 0xf8, 0xf7, 0xf5, 0xfe, 0xf4,
  0x13, 0xe4, 0x04, 0x09, 0xf5, 0x0b, 0x1e, 0xf9, 0xff, 0xe1, 0xe0, 0x04,
  0xec, 0xf0, 0xfb, 0xf1, 0x05, 0xf2, 0x04, 0xfb, 0x08, 0xed, 0xfe, 0xff,
  0xf7, 0x05, 0xfd, 0xee, 0x0c, 0x05, 0xf8, 0x06, 0xfa, 0xfe, 0xfb, 0x06,
  0x0a, 0xfe, 0x06, 0x12, 0x0a, 0xfc, 0x08, 0x06, 0x07, 0xfc, 0xe5, 0xf2,
  0xf3, 0xf3, 0xf4, 0xfa, 0xf3, 0x1a, 0x01, 0xe2, 0x10, 0x0b, 0xf2, 0x1d,
  0xf7, 0xe4, 0xfc, 0xfe, 0x11, 0x06, 0x01, 0x09, 0x08, 0xf4, 0x0f, 0xf1,
  0xfe, 0x10, 0x06, 0x19, 0x0d, 0xf2, 0x16, 0x08, 0xf2, 0xfe, 0xf9, 0xfa,
  0xfb, 0x09, 0xef, 0xf5, 0x13, 0x13, 0xfc, 0xf8, 0x21, 0xf6, 0xef, 0x17,
  0x0a, 0xf2, 0xee, 0xfa, 0x06, 0xe7, 0xfd, 0xfd, 0xe4, 0x04, 0xe8, 0xf0,
  0xf8, 0xf8, 0xe6, 0xf2, 0x01, 0xf6, 0xf4, 0xf3, 0xe7, 0xf4, 0xf7, 0xf8,
  0xf8, 0xe9, 0xe7, 0x00, 0xed, 0x05, 0xf6, 0xf1, 0x14, 0xfd, 0xf1, 0x0e,
  0x02, 0x02, 0x00, 0xf7, 0x08, 0xfd, 0xf8, 0x06, 0x06, 0xf7, 0xf4, 0xec,
  0x0a, 0xfd, 0xfb, 0x03, 0xe9, 0x09, 0xfe, 0xf3, 0x04, 0x08, 0x01, 0x0c,
  0xf9, 0x07, 0x04, 0x09, 0x04, 0x06, 0xff, 0x01, 0x0c, 0x0c, 0xfc, 0x04,
  0xf7, 0xff, 0x0d, 0xf4, 0x01, 0x09, 0xf2, 0xf9, 0x18, 0xe5, 0x01, 0xe5,
  0xf4, 0xf6, 0xe6, 0xf1, 0xf8, 0xe8, 0xf2, 0x04, 0x15, 0xdb, 0x37, 0xfa,
  0xe6, 0x3d, 0x10, 0xd7, 0x39, 0x06, 0xea, 0x1d, 0x0c, 0xea, 0x16, 0x02,
  0xfe, 0x21, 0xed, 0x0b, 0x07, 0xed, 0xfb, 0x08, 0xf8, 0x0a, 0xf7, 0xdf,
  0x04, 0xfb, 0xdc, 0xfd, 0xf3, 0xe9, 0x04, 0xff, 0x09, 0xe6, 0x00, 0x0c,
  0xea, 0xf5, 0x19, 0xe3, 0x01, 0x25, 0x06, 0xfb, 0x17, 0x06, 0xf0, 0x01,
  0x12, 0x03, 0x19, 0x0d, 0x13, 0x0c, 0x0e, 0x09, 0x0b, 0x0c, 0x07, 0x15,
  0xe3, 0xfb, 0xfa, 0x02, 0x0d, 0xfe, 0xed, 0x05, 0x10, 0x08, 0x03, 0x0d,
  0xfe, 0xfd, 0xf8, 0x12, 0xfc, 0x03, 0xfe, 0x1d, 0xfa, 0xeb, 0x26, 0x17,
  0xeb, 0x2d, 0xe9, 0x0d, 0x0f, 0xfe, 0x00, 0xf3, 0x01, 0x00, 0x0f, 0x1c,
  0xe1, 0x0b, 0x0d, 0x00, 0x0c, 0x2b, 0xec, 0x17, 0xef, 0x0f, 0x05, 0xee,
  0xf6, 0xf8, 0xf1, 0xfe, 0xf2, 0x05, 0x00, 0x09, 0x02, 0xfa, 0x04, 0xf2,
  0xf7, 0x06, 0x07, 0xe0, 0x03, 0xf2, 0xe1, 0xf3, 0xfd, 0xdf, 0xf2, 0xf7,
  0x00, 0x12, 0x05, 0x05, 0x05, 0xfd, 0x08, 0x05, 0xfa, 0xfa, 0x03, 0xf6,
  0xf1, 0xe4, 0xe5, 0xfd, 0xe7, 0x24, 0xfc, 0xfc, 0x32, 0xf2, 0x03, 0x06,
  0xf4, 0x18, 0xfd, 0x0d, 0xfc, 0x10, 0x07, 0x14, 0x0f, 0x08, 0xff, 0xf9,
  0xfb, 0x07, 0xf5, 0x01, 0x11, 0x06, 0x01, 0x0a, 0x04, 0x0d, 0x0a, 0x03,
  0x14, 0xfd, 0xf4, 0x22, 0x0a, 0xda, 0x07, 0x12, 0xdb, 0xfd, 0x16, 0xd9,
  0xf1, 0x19, 0x14, 0x22, 0xef, 0x1b, 0x14, 0xfc, 0x0f, 0x0a, 0xdf, 0x09,
  0x14, 0x10, 0x04, 0x23, 0x0f, 0x0c, 0x15, 0x0e, 0xff, 0x19, 0xf3, 0x0f,
  0x0d, 0xe2, 0x10, 0x0c, 0xdc, 0xfc, 0xfd, 0xf5, 0x08, 0x03, 0xe0, 0xf5,
  0x11, 0xed, 0xf8, 0x06, 0x05, 0x03, 0x0d, 0xf8, 0x02, 0x0b, 0xf7, 0xeb,
  0x02, 0xe8, 0xf6, 0x12, 0xe9, 0xf3, 0x09, 0xf1, 0xe9, 0x00, 0x09, 0xee,
  0x01, 0x0a, 0x06, 0xfb, 0x0f, 0x01, 0xfd, 0x0b, 0xff, 0xf2, 0xfc, 0xfc,
  0xfd, 0x08, 0xfd, 0x0b, 0x14, 0x02, 0xf8, 0xf4, 0xfb, 0xfb, 0x03, 0xfb,
  0x07, 0x07, 0x03, 0x00, 0x10, 0x14, 0x05, 0x14, 0xea, 0xf8, 0xea, 0xfb,
  0xea, 0xe2, 0xf8, 0xfd, 0xdf, 0x11, 0xf1, 0xe4, 0xf7, 0xf1, 0xe7, 0x07,
  0xea, 0x02, 0x06, 0x05, 0x0f, 0x08, 0x0a, 0x05, 0x0a, 0x0d, 0x0b, 0xe9,
  0x05, 0xfb, 0x09, 0x01, 0x10, 0x11, 0x0d, 0x09, 0xe3, 0x10, 0x0a, 0xf2,
  0x0a, 0x20, 0xfd, 0x15, 0x0f, 0xe8, 0xfc, 0xfd, 0xde, 0xf4, 0x10, 0xe7,
  0xfc, 0x0a, 0x15, 0x25, 0xfa, 0x18, 0x1b, 0xef, 0x19, 0x16, 0xe9, 0x12,
  0x01, 0x13, 0x15, 0xfd, 0x16, 0x0c, 0x12, 0xfb, 0x1a, 0x27, 0xf8, 0x1b,
  0x0f, 0xfe, 0x19, 0x09, 0xf3, 0xf4, 0xf5, 0xfe, 0xf7, 0x00, 0xe4, 0xf4,
  0x0c, 0xe5, 0xef, 0x12, 0x03, 0x01, 0x12, 0x0a, 0x0d, 0x0f, 0xf4, 0xfb,
  0x12, 0xde, 0x02, 0x10, 0xe4, 0xf3, 0x0f, 0xe4, 0xed, 0x02, 0x0b, 0xfc,
  0x0c, 0x15, 0x09, 0x10, 0x1d, 0x03, 0xf7, 0x05, 0x0d, 0x01, 0x0c, 0x1b,
  0x11, 0x0f, 0xf5, 0x06, 0x10, 0x02, 0x0f, 0x0e, 0x16, 0x14, 0x18, 0x08,
  0x03, 0x0a, 0x02, 0x0e, 0x06, 0x0b, 0x15, 0x11, 0xe5, 0xe2, 0xed, 0xf9,
  0xfb, 0xd6, 0x02, 0x06, 0xe3, 0xf9, 0xdf, 0xe1, 0xe7, 0xf0, 0xee, 0xeb,
  0x03, 0x10, 0x03, 0x06, 0x20, 0x0d, 0x08, 0x0d, 0x13, 0x14, 0x04, 0x0d,
  0x05, 0x08, 0x07, 0x08, 0x02, 0x15, 0x13, 0x13, 0xed, 0xf5, 0x21, 0x0d,
  0x10, 0x13, 0x27, 0x2b, 0xfe, 0xf7, 0xf2, 0xf9, 0xf8, 0xf9, 0x05, 0x0e,
  0x0e, 0x0e, 0x22, 0x1c, 0x04, 0x0e, 0x16, 0xf7, 0x06, 0xe9, 0xf1, 0x07,
  0x17, 0x18, 0x04, 0x09, 0x09, 0xff, 0x01, 0xf6, 0x12, 0x22, 0xf8, 0x13,
  0x08, 0xf1, 0x0e, 0xe3, 0xfc, 0xe4, 0xec, 0xe3, 0xea, 0xf1, 0xfc, 0x0b,
  0xf0, 0xeb, 0x03, 0x0b, 0x12, 0x00, 0x13, 0x0d, 0x0b, 0x07, 0x0d, 0xf9,
  0xfb, 0xf5, 0x0c, 0x00, 0xed, 0x1a, 0x11, 0xfb, 0x00, 0xfa, 0x04, 0x0f,
  0xfa, 0x0b, 0x1a, 0x1c, 0x05, 0xd9, 0xea, 0x01, 0xe3, 0xef, 0x05, 0xd5,
  0xea, 0x01, 0xd9, 0xee, 0xfd, 0xc0, 0xf0, 0xfc, 0xe0, 0xf0, 0x0f, 0xd9,
  0xef, 0xfd, 0xd2, 0xec, 0xf9, 0xdd, 0xe9, 0xf7, 0x28, 0x17, 0xfd, 0x15,
  0x05, 0x08, 0xfc, 0xfc, 0xfa, 0x1d, 0x16, 0x0a, 0x07, 0xf2, 0xf9, 0xf6,
  0xef, 0xd7, 0xcd, 0xd8, 0xf4, 0xc5, 0xec, 0x09, 0xe5, 0xf8, 0x0d, 0xe5,
  0xf0, 0xf6, 0xde, 0xe6, 0xfb, 0xd8, 0xf4, 0xfe, 0xe9, 0xe4, 0xf8, 0xdd,
  0xe7, 0xed, 0xcb, 0xfa, 0x0a, 0xf8, 0xf4, 0x0e, 0x04, 0xf3, 0xf3, 0xf5,
  0xe6, 0xe3, 0xf1, 0xfa, 0x00, 0x18, 0x04, 0x02, 0x2f, 0x1a, 0xfd, 0xdf,
  0xf1, 0xfe, 0xf9, 0xfb, 0xf5, 0x10, 0x08, 0xea, 0xe4, 0xf2, 0xef, 0x07,
  0xf2, 0x02, 0x23, 0x15, 0xeb, 0x25, 0x16, 0xfa, 0x1c, 0x0e, 0xf6, 0xfa,
  0xf9, 0xff, 0xd0, 0xe8, 0xea, 0xd8, 0xef, 0xf6, 0xd6, 0xff, 0x00, 0x1f,
  0x03, 0x16, 0x09, 0xf6, 0x09, 0xec, 0xe1, 0x0a, 0xd9, 0xef, 0xf3, 0xe6,
  0xe3, 0xed, 0xe3, 0xe2, 0xed, 0x24, 0x08, 0x07, 0x0a, 0x0b, 0x0b, 0x1a,
  0x07, 0x0d, 0x23, 0x20, 0x11, 0x1f, 0x1f, 0x00, 0x26, 0x17, 0x00, 0x15,
  0x03, 0x10, 0x0d, 0x0e, 0x01, 0x1a, 0x0c, 0x08, 0xfe, 0x07, 0xea, 0x0b,
  0x11, 0xe7, 0x1b, 0x16, 0xec, 0xee, 0xe9, 0xf4, 0xe9, 0xf0, 0x07, 0xeb,
  0xfc, 0x0f, 0x19, 0x12, 0x02, 0x15, 0x11, 0x13, 0x13, 0x0f, 0xfd, 0x23,
  0x0b, 0x08, 0x25, 0x11, 0x10, 0x19, 0x1a, 0x0c, 0x10, 0x13, 0xfb, 0x25,
  0x11, 0xf8, 0x13, 0x08, 0x02, 0x14, 0x01, 0x08, 0x10, 0xf8, 0x06, 0x15,
  0x01, 0x07, 0x0e, 0x05, 0xff, 0xe7, 0xf7, 0x03, 0xdb, 0xed, 0x05, 0x13,
  0x17, 0xfc, 0x07, 0xfe, 0x02, 0xf6, 0xef, 0x09, 0x18, 0x04, 0x00, 0xe8,
  0xf3, 0xfa, 0xd2, 0xfe, 0xfa, 0xeb, 0xff, 0x07, 0xf3, 0xf8, 0x02, 0xff,
  0xff, 0xfa, 0x1e, 0x14, 0x09, 0x0b, 0x1a, 0x05, 0x22, 0x08, 0xfb, 0x01,
  0x10, 0xfa, 0x05, 0x0c, 0xfb, 0x17, 0x12, 0x0c, 0x13, 0x0e, 0x0b, 0x24,
  0x14, 0x0e, 0x11, 0x10, 0x03, 0x0e, 0x13, 0xfe, 0xf9, 0x0d, 0x06, 0xfe,
  0x05, 0xfb, 0x01, 0x14, 0x02, 0x00, 0x06, 0x0c, 0xf0, 0xf5, 0x0f, 0x0d,
  0x09, 0x01, 0xfa, 0x00, 0x08, 0xea, 0xf1, 0x02, 0x09, 0xf5, 0xf5, 0x1a,
  0x13, 0xfa, 0x17, 0x10, 0x03, 0xfd, 0x12, 0xff, 0x12, 0x0a, 0x12, 0x1f,
  0x12, 0x11, 0x0d, 0x06, 0x05, 0x02, 0xed, 0x01, 0xf1, 0xf6, 0xf7, 0x12,
  0x07, 0x09, 0xff, 0xf8, 0x01, 0xe7, 0xfb, 0x03, 0xfd, 0x0a, 0xf7, 0x0a,
  0xfb, 0xfc, 0x00, 0xf8, 0xf6, 0xfb, 0xee, 0x03, 0xf4, 0xf4, 0x07, 0xf1,
  0xed, 0x08, 0xed, 0xea, 0xf5, 0xed, 0xe8, 0xeb, 0xed, 0xe3, 0xef, 0xfb,
  0x01, 0xe7, 0xf2, 0xfe, 0xef, 0xff, 0xee, 0xf8, 0xe5, 0xf0, 0xe3, 0xf9,
  0xec, 0xdb, 0xf3, 0xda, 0xdd, 0xfc, 0x02, 0xfd, 0x04, 0x05, 0xe9, 0x0d,
  0xff, 0xfd, 0x13, 0xfb, 0x07, 0x0e, 0xe2, 0xfe, 0xfe, 0xe0, 0xe2, 0x0b,
  0xf6, 0xe7, 0x14, 0x01, 0xe8, 0x1d, 0xfe, 0xe6, 0x03, 0x10, 0x05, 0xf8,
  0x05, 0x0a, 0xef, 0xfb, 0x01, 0x05, 0xfb, 0xfc, 0x16, 0x04, 0xf7, 0x06,
  0x01, 0x04, 0xfe, 0xec, 0xf1, 0xf4, 0xeb, 0x00, 0x00, 0xf1, 0xf5, 0x08,
  0x09, 0xfe, 0x10, 0x0b, 0x04, 0x0c, 0x0d, 0x07, 0x0a, 0x07, 0xeb, 0x11,
  0x1c, 0x12, 0xef, 0x02, 0x1f, 0xfa, 0x12, 0x08, 0xf8, 0x16, 0x0d, 0xfd,
  0x0e, 0x04, 0x18, 0x11, 0xfe, 0x14, 0x19, 0x05, 0x0e, 0x1c, 0xfc, 0x0a,
  0x0e, 0x06, 0x12, 0x10, 0xf7, 0x03, 0xff, 0xfa, 0x1b, 0x03, 0xfd, 0x05,
  0x01, 0xf8, 0x02, 0xfe, 0xf9, 0xd7, 0x01, 0x0f, 0xd2, 0xe9, 0x05, 0xea,
  0xe9, 0x0e, 0xdf, 0xf8, 0x0e, 0x02, 0x06, 0xf8, 0x13, 0x05, 0xf8, 0xeb,
  0xf6, 0xfc, 0xeb, 0xf9, 0x0c, 0xfc, 0x02, 0x02, 0xdb, 0x00, 0x11, 0xf4,
  0xff, 0x06, 0x0c, 0x0c, 0xfe, 0x20, 0x0b, 0xf5, 0x0f, 0x16, 0x0c, 0xe6,
  0x0e, 0x16, 0x14, 0x16, 0xfe, 0xff, 0x0f, 0x01, 0xf8, 0x1c, 0x07, 0xf5,
  0x17, 0x13, 0xe8, 0x0a, 0x1e, 0xeb, 0xf3, 0x1a, 0x0d, 0x08, 0x08, 0x02,
  0x09, 0x0a, 0x02, 0x09, 0xf8, 0xe1, 0xf8, 0xfc, 0xe3, 0xef, 0xf5, 0xfc,
  0xee, 0xf8, 0xe8, 0x00, 0xf2, 0xe8, 0xf5, 0xf9, 0x07, 0xfb, 0xfd, 0xd5,
  0xf1, 0xf4, 0xeb, 0xed, 0x04, 0xe8, 0xf0, 0xf4, 0x0a, 0x08, 0x06, 0x0d,
  0xfd, 0x0c, 0x09, 0xf7, 0xf9, 0xf8, 0x0a, 0x0e, 0x03, 0x09, 0x08, 0x02,
  0xf5, 0x03, 0xf4, 0xf8, 0xee, 0xe6, 0xe7, 0xfd, 0xd6, 0xf1, 0xfc, 0xe6,
  0xf3, 0x05, 0xf5, 0x01, 0xff, 0xf0, 0xf1, 0xf6, 0xd4, 0xf9, 0xee, 0xec,
  0xe8, 0xfa, 0xe1, 0xeb, 0x01, 0x24, 0xf5, 0xfe, 0x28, 0xff, 0xfb, 0x19,
  0x04, 0xe9, 0x0d, 0x05, 0xf8, 0x04, 0xfd, 0x06, 0x04, 0x08, 0xf6, 0xf4,
  0xf3, 0xed, 0xfc, 0xf4, 0xfe, 0x05, 0xf8, 0xeb, 0xfd, 0x08, 0x04, 0x09,
  0x0f, 0x02, 0x1c, 0x16, 0xfe, 0xfc, 0x13, 0x02, 0x19, 0xf9, 0x07, 0x13,
  0xf4, 0xfd, 0xd9, 0xeb, 0xf7, 0xe7, 0xec, 0xec, 0xef, 0xf5, 0xff, 0xf8,
  0x18, 0x19, 0x05, 0x0c, 0x07, 0xf7, 0x04, 0x02, 0xd6, 0xe2, 0xff, 0xdf,
  0xe6, 0xf4, 0x01, 0xe3, 0xf9, 0x0d, 0x0a, 0x05, 0x02, 0xf0, 0xef, 0xf7,
  0xfc, 0xf7, 0x0d, 0xf2, 0x04, 0xfe, 0xe9, 0xe9, 0xf9, 0xf6, 0xfe, 0xff,
  0xff, 0xf5, 0xf6, 0xf9, 0x04, 0xe9, 0x00, 0xf5, 0xea, 0xf9, 0x49, 0xf9,
  0xe7, 0x4d, 0xfb, 0xf7, 0x46, 0xe2, 0xfc, 0x10, 0xf3, 0x0b, 0x15, 0xfb,
  0xfd, 0x20, 0x0c, 0x0e, 0x07, 0x06, 0x16, 0x11, 0xf5, 0x1f, 0x01, 0xec,
  0xee, 0x01, 0xfc, 0x05, 0xf7, 0xea, 0xfc, 0xea, 0xed, 0xfd, 0x11, 0xee,
  0x04, 0x11, 0xfa, 0xfd, 0xf7, 0x0d, 0xfd, 0x13, 0x09, 0xf3, 0xf7, 0x15,
  0xf5, 0x05, 0xfd, 0x00, 0x16, 0xfc, 0xf8, 0x15, 0xfb, 0x00, 0x06, 0x07,
  0xf1, 0x07, 0x07, 0xf8, 0x06, 0x09, 0xf9, 0x07, 0x02, 0xf1, 0x21, 0xea,
  0xfe, 0x1f, 0xfe, 0x00, 0x09, 0xea, 0x0a, 0x27, 0xfd, 0x08, 0x40, 0xe1,
  0x05, 0x3f, 0xef, 0x12, 0x0b, 0xfc, 0x02, 0x08, 0xe5, 0x0d, 0x07, 0x0f,
  0xf5, 0x17, 0xfb, 0xf0, 0x13, 0x08, 0xfc, 0x1f, 0x00, 0xf5, 0xfc, 0xea,
  0xec, 0xfd, 0xf3, 0x05, 0xf2, 0x03, 0x05, 0x06, 0x06, 0xf3, 0x06, 0x00,
  0xfb, 0x08, 0xfb, 0xf4, 0x11, 0xf3, 0xf2, 0x13, 0xf0, 0x01, 0x11, 0x0c,
  0x0e, 0x15, 0x01, 0x09, 0xf9, 0x10, 0x0e, 0x13, 0x0e, 0xf5, 0xea, 0x04,
  0xea, 0xdf, 0x05, 0xf1, 0xec, 0x1e, 0xfb, 0xea, 0x27, 0xfa, 0xe5, 0x22,
  0xf5, 0xe8, 0x07, 0xf7, 0x0e, 0xfb, 0xf8, 0x0d, 0xfb, 0xf5, 0xf4, 0x07,
  0x05, 0x06, 0x04, 0x07, 0x0e, 0xfe, 0x16, 0x08, 0xf4, 0xf0, 0x0f, 0xf2,
  0xfc, 0x08, 0xfe, 0xfe, 0xf8, 0x1c, 0x01, 0xf4, 0x15, 0xf0, 0xfa, 0x1d,
  0xee, 0x0a, 0x09, 0xf3, 0xf9, 0x00, 0xea, 0xf0, 0x10, 0xeb, 0x04, 0xfb,
  0xe6, 0xf7, 0xe9, 0xf4, 0xf6, 0xfe, 0xf2, 0xfe, 0xfa, 0xf4, 0xeb, 0x16,
  0xf8, 0xfe, 0xed, 0xf6, 0xfe, 0x1a, 0x03, 0xe9, 0x17, 0x01, 0xe8, 0x07,
  0xf1, 0xdd, 0x08, 0x05, 0x0b, 0x04, 0xff, 0x0e, 0xf5, 0xf2, 0x0c, 0x06,
  0xdf, 0xf6, 0x03, 0xe8, 0xf8, 0xff, 0xe9, 0xef, 0x00, 0x0a, 0x0f, 0x05,
  0xfb, 0x14, 0x11, 0x06, 0x00, 0x09, 0x0f, 0x0c, 0x00, 0x05, 0x17, 0x19,
  0x07, 0x1d, 0x10, 0x24, 0x1f, 0x1b, 0x24, 0x15, 0x12, 0x09, 0x0f, 0x07,
  0x0f, 0x05, 0x11, 0x06, 0x12, 0x06, 0xff, 0x15, 0xd5, 0xef, 0xed, 0xfa,
  0x0d, 0xdd, 0x20, 0x1d, 0xea, 0xe9, 0xd7, 0xf4, 0xef, 0xee, 0x04, 0xf5,
  0x05, 0x16, 0x15, 0x28, 0x1b, 0x11, 0x0f, 0x00, 0x08, 0xed, 0xfb, 0x08,
  0x0e, 0xff, 0x1d, 0x05, 0x05, 0x0c, 0x03, 0x02, 0xf9, 0x1b, 0x17, 0x0d,
  0x13, 0x09, 0x20, 0x00, 0xfe, 0x14, 0xfe, 0xf4, 0x12, 0xf9, 0x00, 0x05,
  0x0c, 0x0b, 0x1a, 0x09, 0xf3, 0xfc, 0xeb, 0xf6, 0xda, 0xec, 0xfe, 0x13,
  0x0e, 0x06, 0x07, 0xfc, 0xfb, 0xf1, 0xe4, 0xee, 0x23, 0x21, 0xe9, 0xf4,
  0xf5, 0xfa, 0xd2, 0xed, 0xf5, 0xd4, 0xea, 0xf8, 0xe7, 0xf3, 0x00, 0x0b,
  0x04, 0x09, 0x00, 0x20, 0x04, 0x02, 0x0b, 0xf8, 0x0c, 0xec, 0xff, 0xfb,
  0xf5, 0xed, 0x1b, 0x0a, 0xf4, 0x2d, 0x17, 0xfa, 0x1f, 0x08, 0x02, 0x18,
  0x0f, 0x14, 0x22, 0x09, 0x0f, 0x0d, 0x01, 0xfc, 0x04, 0xff, 0x0f, 0xfb,
  0xfd, 0x00, 0x14, 0xd4, 0xfc, 0x01, 0xe8, 0xfb, 0x10, 0xdf, 0x04, 0xed,
  0x09, 0xfb, 0xfa, 0x03, 0xff, 0xfe, 0xfc, 0x08, 0x0f, 0xd6, 0x37, 0x08,
  0xf5, 0x52, 0x17, 0xd9, 0x5e, 0x1c, 0xf0, 0x1f, 0xfc, 0xea, 0x20, 0x0f,
  0xea, 0x1c, 0xea, 0x0d, 0x08, 0xe3, 0x06, 0x06, 0xe9, 0x0a, 0xfe, 0xeb,
  0x0d, 0xf8, 0xf6, 0x04, 0xf1, 0xf4, 0xff, 0x06, 0xf9, 0xf2, 0x08, 0xf5,
  0xf9, 0x09, 0x07, 0xe1, 0x0c, 0x22, 0x0e, 0xf2, 0x0f, 0x03, 0xf3, 0x04,
  0x12, 0xf5, 0x05, 0x0e, 0x08, 0x10, 0x02, 0xfc, 0x07, 0x07, 0xf7, 0x04,
  0xfa, 0x02, 0x07, 0xf9, 0x0f, 0x16, 0xe0, 0x08, 0x0d, 0x01, 0xf7, 0x11,
  0xfd, 0x0f, 0x05, 0x12, 0x07, 0x03, 0xd7, 0x2a, 0xf5, 0xfd, 0x39, 0xfc,
  0xdc, 0x2e, 0xf4, 0x0a, 0x16, 0x02, 0x06, 0xfa, 0xf9, 0xee, 0xfd, 0x31,
  0xd7, 0x06, 0x23, 0xf1, 0x16, 0x36, 0xdc, 0x1c, 0xf8, 0xfb, 0x02, 0xff,
  0xfb, 0xf6, 0xfb, 0x03, 0x09, 0xf0, 0x08, 0x02, 0xf9, 0x04, 0x0f, 0xf8,
  0x00, 0x01, 0xf4, 0xf2, 0xf3, 0xf8, 0xe8, 0xff, 0xf9, 0xe1, 0xfa, 0xff,
  0x0a, 0x05, 0x04, 0x00, 0xfc, 0xf2, 0xfe, 0x07, 0xf7, 0xef, 0xf8, 0x05,
  0x08, 0xf6, 0xf2, 0x09, 0x1d, 0x18, 0x06, 0x03, 0x1d, 0x03, 0x0c, 0x13,
  0x0d, 0x07, 0x08, 0xfe, 0x07, 0x04, 0xff, 0xfa, 0x02, 0x02, 0xf8, 0xf7,
  0x03, 0xfb, 0xff, 0xff, 0xfc, 0xf4, 0x06, 0x06, 0x19, 0x0f, 0xf4, 0xff,
  0x19, 0xf4, 0x09, 0x19, 0xfb, 0xc9, 0xee, 0x0c, 0xd3, 0xfe, 0x16, 0xdb,
  0xef, 0x22, 0x03, 0x11, 0xef, 0x02, 0x13, 0xf2, 0x17, 0xf4, 0xed, 0xfc,
  0x21, 0x00, 0x00, 0x14, 0x02, 0xfe, 0x07, 0xf7, 0xfe, 0x11, 0xf5, 0x0b,
  0x04, 0xf1, 0x0f, 0xf9, 0xf5, 0x05, 0x05, 0xea, 0xfc, 0x16, 0xfc, 0xf1,
  0x07, 0xfc, 0x0b, 0xf8, 0xf4, 0x0d, 0x02, 0x01, 0x08, 0x09, 0xeb, 0xe8,
  0x0a, 0xf0, 0xeb, 0x12, 0x02, 0xed, 0x10, 0xfd, 0xfd, 0x06, 0x00, 0xf4,
  0xfd, 0x14, 0xf5, 0xfd, 0xff, 0x0e, 0x08, 0x11, 0x17, 0x02, 0x05, 0x10,
  0xee, 0x0f, 0x0c, 0xe3, 0x05, 0x0d, 0xe6, 0x03, 0x13, 0xda, 0xff, 0xf7,
  0x0c, 0x03, 0xfc, 0x09, 0x01, 0xef, 0x15, 0xf1, 0x01, 0xfd, 0x1b, 0xed,
  0xf2, 0x09, 0xee, 0xf2, 0xfe, 0x31, 0x09, 0xe6, 0x2f, 0xfe, 0xe8, 0x35,
  0x00, 0xe6, 0x0a, 0xfc, 0x0b, 0x11, 0xf3, 0xf8, 0xfd, 0xfd, 0x08, 0xe4,
  0x12, 0xfe, 0xec, 0x18, 0xfd, 0xe7, 0x11, 0x02, 0x0c, 0xfd, 0x03, 0xfa,
  0xfd, 0x0c, 0x05, 0xfa, 0x0d, 0xeb, 0x0d, 0x0a, 0xf1, 0x18, 0x04, 0xf6,
  0x10, 0xf6, 0xff, 0x1c, 0xff, 0x0e, 0xf9, 0xf2, 0x04, 0x0d, 0xf0, 0x00,
  0x17, 0xfe, 0x11, 0x06, 0x02, 0x00, 0xe9, 0x00, 0x05, 0x0f, 0xf8, 0x16,
  0x05, 0x02, 0x14, 0x1a, 0xff, 0x03, 0xf6, 0xff, 0xf0, 0x03, 0xfe, 0x0d,
  0x01, 0xe3, 0xfc, 0xf6, 0xfb, 0x00, 0xf6, 0x0e, 0xf7, 0xf8, 0xfb, 0xdd,
  0x17, 0xee, 0xfb, 0x03, 0xef, 0xf1, 0x09, 0xe9, 0x04, 0x08, 0xf0, 0xf0,
  0x18, 0xfc, 0xf7, 0x06, 0xf1, 0xf0, 0x03, 0x07, 0xda, 0xef, 0xef, 0xde,
  0xe9, 0xf5, 0x09, 0x0a, 0x01, 0xea, 0xfe, 0xf9, 0xf3, 0x08, 0xfe, 0xe9,
  0xe3, 0xfa, 0x05, 0xeb, 0xf9, 0xfb, 0xe1, 0xf3, 0x1c, 0x1a, 0xde, 0x10,
  0x0c, 0xf7, 0x13, 0xff, 0xf6, 0x16, 0x12, 0xf6, 0x13, 0x1b, 0xea, 0x01,
  0x1c, 0xdb, 0xd7, 0xe8, 0xe8, 0xd9, 0xe4, 0xf6, 0xdf, 0xea, 0x00, 0xf1,
  0xf2, 0x0d, 0xea, 0xfc, 0x05, 0xf2, 0xea, 0xf0, 0xe9, 0xf4, 0xf1, 0xd5,
  0x03, 0xf9, 0xdf, 0xf5, 0x11, 0x1e, 0xf7, 0xe8, 0x2b, 0xf7, 0xf9, 0x36,
  0xf8, 0xf3, 0x03, 0xf2, 0xfe, 0x15, 0xfc, 0xfc, 0x30, 0x18, 0xfe, 0xfa,
  0xda, 0xfa, 0x07, 0xef, 0xea, 0x0d, 0xf3, 0xe4, 0x15, 0x07, 0xfd, 0x10,
  0x0d, 0x00, 0x2e, 0x0f, 0xe3, 0x07, 0x26, 0xe2, 0x0f, 0x0e, 0xf1, 0x01,
  0x16, 0x07, 0xd8, 0xed, 0x0b, 0xdb, 0xfa, 0xfc, 0xd1, 0xee, 0x09, 0x0d,
  0x02, 0x01, 0x10, 0xfa, 0x04, 0x0c, 0xff, 0x0e, 0xee, 0xff, 0x03, 0xe6,
  0xf9, 0xec, 0xdf, 0x03, 0xfb, 0x15, 0x04, 0xfe, 0x0c, 0x03, 0xf5, 0x0b,
  0x02, 0xfb, 0x1b, 0x0a, 0x0b, 0x15, 0xf6, 0x09, 0x11, 0xff, 0xff, 0x1a,
  0x18, 0xfa, 0x15, 0x16, 0xfd, 0x22, 0x10, 0xfb, 0x17, 0x0d, 0x04, 0x07,
  0x09, 0xfe, 0xfc, 0x07, 0x00, 0xf6, 0xf1, 0x06, 0xef, 0xee, 0x15, 0xf2,
  0xfe, 0x0d, 0x0e, 0x0f, 0x02, 0x12, 0x1a, 0xfd, 0x16, 0x0d, 0x0a, 0x09,
  0x1b, 0xf6, 0x24, 0x18, 0xfa, 0x20, 0x0e, 0x0a, 0x1b, 0x04, 0xff, 0x0a,
  0x03, 0x08, 0xfc, 0x06, 0xff, 0xf1, 0x0b, 0x09, 0xf0, 0xf7, 0x0a, 0xf6,
  0xff, 0x04, 0xe6, 0x06, 0x11, 0xf1, 0xf5, 0xfc, 0x04, 0xfb, 0x05, 0x08,
  0x00, 0x06, 0xf1, 0x04, 0x01, 0xf2, 0xf9, 0x08, 0xd5, 0x01, 0x12, 0xe3,
  0xf9, 0x0c, 0x00, 0xf5, 0x10, 0x08, 0xfd, 0x0f, 0x04, 0xf9, 0x0d, 0xf9,
  0x0a, 0x1b, 0x04, 0x12, 0xfb, 0x19, 0x0f, 0xfb, 0x0a, 0x13, 0x09, 0x02,
  0x11, 0x08, 0x03, 0x0b, 0x10, 0xee, 0x09, 0x24, 0x12, 0x0c, 0xf0, 0x1a,
  0x13, 0x06, 0x13, 0xff, 0xfa, 0x07, 0xff, 0x01, 0xfa, 0xf7, 0x10, 0xf3,
  0xf8, 0x04, 0x23, 0x16, 0x0d, 0x0a, 0x0c, 0xfe, 0x05, 0xff, 0x10, 0xfb,
  0x03, 0x04, 0xf8, 0xf6, 0xfc, 0xf1, 0xf4, 0x01, 0x1a, 0x16, 0xff, 0x1b,
  0x0e, 0x05, 0x15, 0xeb, 0x03, 0x20, 0x0e, 0x10, 0x0a, 0x0d, 0x13, 0x1b,
  0xed, 0xf2, 0x0b, 0xee, 0xe2, 0xef, 0xe9, 0x0b, 0xe5, 0xea, 0x0c, 0xf3,
  0x03, 0xfb, 0xf3, 0xf4, 0xf9, 0xf7, 0xfb, 0x0c, 0xfa, 0x18, 0xea, 0x08,
  0xf5, 0xef, 0xfc, 0xf7, 0x00, 0xfa, 0xfa, 0x13, 0x13, 0xfb, 0xfe, 0x0c,
  0xf2, 0xf0, 0xe6, 0xe1, 0x02, 0xe8, 0xfc, 0xe5, 0xff, 0x03, 0xff, 0xfc,
  0xfd, 0xef, 0xf7, 0xf7, 0xf5, 0x07, 0x03, 0x01, 0xd5, 0xf0, 0xe7, 0xf9,
  0xf6, 0xe8, 0x01, 0xf2, 0xee, 0x02, 0x0e, 0x07, 0x0f, 0x02, 0xef, 0x03,
  0x06, 0xfd, 0xf3, 0xef, 0xf1, 0xfb, 0xec, 0xf3, 0xe5, 0xe9, 0xf7, 0x03,
  0xf8, 0xfc, 0x09, 0xfc, 0x07, 0x01, 0xf0, 0xfe, 0x0b, 0x01, 0xfe, 0x07,
  0xfb, 0xf6, 0xf1, 0xef, 0xfa, 0xfb, 0xfd, 0x0b, 0x08, 0x0c, 0xea, 0xfe,
  0x0c, 0x00, 0xf8, 0x18, 0xf8, 0xfe, 0x00, 0xee, 0xec, 0x00, 0xe2, 0x13,
  0xf7, 0xf7, 0xfc, 0xe7, 0x00, 0x10, 0xf4, 0x00, 0xdb, 0x17, 0x37, 0xec,
  0x02, 0x0e, 0xdc, 0xff, 0x1c, 0xfc, 0x1b, 0xff, 0xed, 0x1b, 0xec, 0xfd,
  0x37, 0xfc, 0x15, 0xff, 0xf6, 0x0a, 0x0c, 0xf9, 0x07, 0x06, 0xf8, 0xf5,
  0xfb, 0x00, 0xfc, 0xfa, 0x0c, 0xf9, 0xed, 0x0a, 0x00, 0x0e, 0xff, 0xfc,
  0x0a, 0x16, 0xe0, 0x0d, 0x10, 0x16, 0x0a, 0x04, 0x04, 0x0b, 0xf2, 0x06,
  0xfb, 0x00, 0x08, 0x07, 0x18, 0x01, 0x03, 0x23, 0x08, 0x13, 0x0b, 0xfd,
  0x11, 0x0a, 0x01, 0x17, 0x10, 0xf9, 0x13, 0x0e, 0x0b, 0x0e, 0x04, 0x02,
  0x12, 0x0e, 0xf7, 0xfb, 0x16, 0xf4, 0x02, 0x16, 0xe0, 0x12, 0x0d, 0xef,
  0x0c, 0x04, 0xf7, 0x0a, 0xfe, 0xfb, 0x0b, 0xfc, 0xff, 0x04, 0x05, 0x01,
  0xff, 0x06, 0xf2, 0x04, 0xf7, 0xfe, 0x16, 0x05, 0xf4, 0xf2, 0xf8, 0xf3,
  0xfc, 0x04, 0xfd, 0xfc, 0x0a, 0x0d, 0xf0, 0x08, 0x06, 0xff, 0x00, 0x0d,
  0x0b, 0x05, 0x0b, 0x13, 0x0b, 0xf4, 0x03, 0x08, 0x06, 0x12, 0x07, 0x04,
  0x01, 0x0f, 0x0a, 0x07, 0x05, 0x03, 0xf4, 0xfe, 0x09, 0x05, 0xe9, 0x0d,
  0x00, 0xed, 0x08, 0xfa, 0xe7, 0x0d, 0xf2, 0xe9, 0x0e, 0xfd, 0xf2, 0x13,
  0x00, 0xe0, 0xf9, 0xff, 0x11, 0x04, 0xfe, 0xfd, 0x07, 0x0e, 0xfe, 0x08,
  0x0a, 0x0e, 0x12, 0x10, 0x01, 0x11, 0x03, 0x12, 0xfc, 0xfe, 0x0b, 0x00,
  0x09, 0xfa, 0x05, 0x14, 0x02, 0x1f, 0xf1, 0xfd, 0x1c, 0xf4, 0xf3, 0x0f,
  0xf5, 0x03, 0xf4, 0xee, 0xf7, 0xf7, 0xfb, 0xfb, 0xf1, 0xea, 0x00, 0xf0,
  0xe6, 0xf3, 0xfb, 0xf2, 0xee, 0xf8, 0xdf, 0x08, 0x05, 0xf9, 0xfc, 0x01,
  0xfa, 0x0b, 0xfc, 0xf0, 0x01, 0x16, 0xfa, 0xf4, 0x01, 0xf9, 0xe9, 0x0b,
  0xf9, 0xf6, 0x01, 0xff, 0x02, 0x0a, 0x05, 0xfa, 0x0a, 0x0b, 0x0d, 0xf7,
  0xfd, 0xf1, 0xfc, 0xed, 0xfe, 0xfc, 0xf9, 0xfc, 0x1d, 0x08, 0x04, 0x01,
  0x05, 0x03, 0x08, 0xf8, 0x02, 0x04, 0xfc, 0xfd, 0x11, 0xfc, 0xfc, 0x11,
  0x06, 0xfb, 0x03, 0xf4, 0xf6, 0x09, 0xf4, 0xef, 0xfa, 0xee, 0xf8, 0x05,
  0x05, 0x0e, 0xfa, 0xf7, 0xfe, 0x00, 0xf7, 0x0c, 0xfe, 0x1b, 0xfd, 0xe2,
  0x13, 0x16, 0xf4, 0x19, 0x03, 0x37, 0x18, 0xe9, 0x30, 0x13, 0xef, 0x3c,
  0x1d, 0xe8, 0x00, 0xf6, 0xf2, 0x03, 0x06, 0xfd, 0x06, 0xff, 0x01, 0xe9,
  0xf6, 0x09, 0xff, 0x00, 0x08, 0x04, 0x08, 0xff, 0x0a, 0x16, 0xf3, 0x03,
  0x15, 0x05, 0x04, 0x17, 0xfc, 0xd0, 0x15, 0x0b, 0xd0, 0x11, 0xfd, 0xc4,
  0x1a, 0xef, 0x04, 0x07, 0x02, 0x0d, 0x0a, 0x10, 0x14, 0xff, 0x09, 0xff,
  0x0e, 0xf4, 0x02, 0x15, 0x09, 0x17, 0x12, 0x0d, 0x01, 0x10, 0x06, 0x0f,
  0x13, 0x00, 0x0c, 0xf5, 0x0b, 0xf2, 0x17, 0x0c, 0xfa, 0x13, 0xfa, 0xf1,
  0x25, 0x1a, 0x03, 0xf4, 0x0a, 0x02, 0xf5, 0x05, 0x00, 0xfc, 0x05, 0xdf,
  0x15, 0xfe, 0xeb, 0x0d, 0xf8, 0xe6, 0x11, 0x08, 0x03, 0x0d, 0x04, 0xfa,
  0x0a, 0xf7, 0x06, 0x0a, 0xfe, 0xfd, 0xf2, 0xf2, 0x0d, 0xe8, 0xff, 0x01,
  0x04, 0xf6, 0x11, 0xf1, 0x05, 0x10, 0xea, 0x0a, 0x01, 0xfa, 0xfa, 0xee,
  0x0b, 0x00, 0x00, 0x0a, 0xf6, 0xe5, 0xfc, 0xff, 0xfb, 0x14, 0xd7, 0xf6,
  0x1c, 0xdb, 0xf5, 0x08, 0xf0, 0x17, 0x0e, 0xe3, 0x13, 0x13, 0xec, 0xf3,
  0x16, 0xda, 0xf9, 0xee, 0x08, 0xed, 0xeb, 0x08, 0xe9, 0xfe, 0xf5, 0xce,
  0x12, 0x03, 0xfa, 0xfb, 0xf6, 0xe4, 0x0b, 0x0a, 0xf3, 0x04, 0xee, 0xf8,
  0xfd, 0x06, 0xf6, 0xe2, 0x01, 0x27, 0x10, 0xf2, 0x1f, 0x17, 0xe3, 0x31,
  0x0e, 0xe3, 0x0c, 0xfd, 0x09, 0x0e, 0x02, 0xf1, 0x1d, 0x0d, 0xf3, 0x0f,
  0x04, 0xde, 0x05, 0xfe, 0xf3, 0x0e, 0xfe, 0xf3, 0x05, 0x04, 0x13, 0x0b,
  0x0d, 0x09, 0x1d, 0x10, 0xfb, 0x00, 0x16, 0xf3, 0xe8, 0x09, 0xf4, 0xf7,
  0x22, 0xf7, 0xdf, 0xfc, 0xfb, 0xe6, 0xf1, 0x02, 0xcf, 0xe7, 0x0d, 0x21,
  0xfd, 0xf8, 0x19, 0xf9, 0xe5, 0x22, 0xf3, 0xf4, 0xf8, 0x03, 0xf8, 0xfe,
  0x08, 0xfb, 0xf7, 0x09, 0xf6, 0xf8, 0xf9, 0x00, 0xfa, 0x07, 0xf5, 0x00,
  0xfb, 0xf7, 0xf8, 0xfb, 0xf8, 0xf4, 0xf0, 0xef, 0xe3, 0xf5, 0xf6, 0x04,
  0x0e, 0xf8, 0xfc, 0xf7, 0xee, 0xf9, 0xf5, 0x0b, 0xe6, 0xed, 0x24, 0xef,
  0xf1, 0x3d, 0xde, 0x02, 0x45, 0xf2, 0x08, 0x0e, 0xf0, 0x09, 0x17, 0xec,
  0x09, 0x01, 0x0d, 0x11, 0xfd, 0x08, 0x0c, 0x02, 0xfd, 0x12, 0x06, 0x01,
  0xf2, 0x00, 0xf6, 0xfc, 0xf4, 0xf2, 0xe9, 0xf7, 0xef, 0xfa, 0x07, 0x02,
  0x05, 0xfa, 0xf4, 0xf6, 0x05, 0x10, 0xff, 0xef, 0x09, 0x00, 0xfb, 0x06,
  0x0d, 0xed, 0xf8, 0xff, 0x0b, 0xe5, 0x0a, 0x16, 0xfc, 0x03, 0x03, 0xd7,
  0x02, 0x1d, 0xed, 0xff, 0x0e, 0xe2, 0x01, 0x00, 0xf2, 0xfb, 0x11, 0xf9,
  0xfb, 0x09, 0xe6, 0x06, 0x12, 0xf7, 0x01, 0x32, 0x00, 0x0b, 0x23, 0xe8,
  0x02, 0x30, 0x02, 0x04, 0x08, 0x05, 0x0f, 0x12, 0xff, 0x06, 0x07, 0xed,
  0xfc, 0x19, 0xe8, 0xee, 0x02, 0xeb, 0x0a, 0x0c, 0x00, 0x09, 0xf3, 0x05,
  0xfe, 0xf0, 0xf6, 0xef, 0xfc, 0x1c, 0xf8, 0x0e, 0x04, 0x09, 0x09, 0x0a,
  0x04, 0x06, 0x0e, 0xea, 0xf1, 0x21, 0x01, 0x0c, 0x1b, 0x03, 0x0b, 0xfc,
  0x08, 0x03, 0xe9, 0x05, 0xfd, 0xe9, 0x08, 0x00, 0xec, 0x04, 0xf4, 0xf7,
  0x07, 0xef, 0x00, 0x0b, 0xea, 0x29, 0x14, 0xd5, 0x12, 0x27, 0xe3, 0x1c,
  0x21, 0xd6, 0x15, 0x07, 0x0b, 0x07, 0xf6, 0x07, 0x00, 0xf7, 0xfd, 0xf3,
  0x13, 0x07, 0xf0, 0x09, 0x07, 0xe8, 0xf2, 0x01, 0x07, 0x13, 0x08, 0xfc,
  0x0b, 0x00, 0x01, 0x0b, 0x02, 0x11, 0xfa, 0xff, 0x17, 0xf7, 0xfa, 0x23,
  0x0a, 0xea, 0xf6, 0xee, 0x0b, 0x11, 0x12, 0xed, 0xfe, 0xfd, 0xf4, 0x14,
  0xe0, 0xf1, 0xfe, 0x08, 0xf6, 0x14, 0xf9, 0xfa, 0xf4, 0x10, 0xf2, 0x13,
  0xe7, 0xe9, 0x1f, 0xfa, 0xfa, 0x0b, 0x16, 0xd5, 0x03, 0x0d, 0xe4, 0xf4,
  0x22, 0xf2, 0xfa, 0xf9, 0xf5, 0x0b, 0xf5, 0x14, 0xfe, 0xf9, 0x07, 0x0c,
  0xfc, 0xec, 0x01, 0xf8, 0xe9, 0xf1, 0xf6, 0xe5, 0x0e, 0xfd, 0xf4, 0x11,
  0x01, 0xfa, 0xfc, 0x10, 0x08, 0x1f, 0x0d, 0x02, 0x1f, 0x10, 0x01, 0x19,
  0x02, 0x0d, 0x22, 0x19, 0xf9, 0x1d, 0x0d, 0x05, 0x15, 0xfc, 0x0d, 0x1b,
  0x1e, 0x09, 0x27, 0x15, 0x00, 0x13, 0x15, 0x01, 0x0e, 0x02, 0xf6, 0x06,
  0x02, 0x03, 0xf8, 0x03, 0x0f, 0xef, 0xf7, 0x07, 0xf0, 0x01, 0x08, 0xe5,
  0xff, 0x00, 0x06, 0x1a, 0x09, 0x1f, 0x28, 0x02, 0x13, 0x1d, 0x0c, 0x16,
  0x1c, 0x04, 0x12, 0x19, 0x06, 0x27, 0x1d, 0x05, 0x1f, 0x16, 0x0b, 0x1b,
  0x16, 0x0d, 0x17, 0x08, 0x04, 0xfb, 0x0a, 0xfe, 0xfd, 0x08, 0xfe, 0xff,
  0xfd, 0xfa, 0xe9, 0xf4, 0x21, 0xda, 0xef, 0x0e, 0xf2, 0xf4, 0x08, 0x09,
  0xf5, 0x07, 0xf2, 0xee, 0x0b, 0xe6, 0xed, 0x10, 0xda, 0xf5, 0x0b, 0xe4,
  0xff, 0x1d, 0xf3, 0xfe, 0x05, 0xfd, 0xfa, 0x13, 0xf7, 0x05, 0x1d, 0xf2,
  0x08, 0x1f, 0x26, 0x22, 0x14, 0x06, 0x1c, 0x0f, 0x21, 0x1d, 0x0f, 0xf5,
  0xfd, 0x08, 0xee, 0x01, 0x06, 0xe5, 0xfd, 0x16, 0x1f, 0x16, 0x08, 0x20,
  0x16, 0x01, 0x25, 0x0f, 0x02, 0xfe, 0xf4, 0xfb, 0xe5, 0xed, 0x02, 0xfd,
  0xec, 0xfb, 0xf0, 0x05, 0x0c, 0xed, 0xf1, 0x00, 0xef, 0x01, 0x02, 0xfa,
  0xe6, 0xf8, 0xf3, 0xf8, 0xf2, 0xfc, 0xe8, 0xfa, 0x01, 0x0e, 0x12, 0x04,
  0x11, 0x08, 0x18, 0x0b, 0xf2, 0xf3, 0xfe, 0x0b, 0xf7, 0xf5, 0x14, 0xf0,
  0xfa, 0x02, 0xf6, 0xfa, 0xf5, 0xf7, 0xf7, 0xf8, 0xed, 0xfe, 0x06, 0x08,
  0xfb, 0xe9, 0x0b, 0xfc, 0xf8, 0x11, 0xf9, 0xfe, 0xf5, 0xed, 0xe8, 0xf6,
  0xec, 0xf1, 0xeb, 0xe8, 0xe6, 0x1b, 0xf9, 0xf4, 0x19, 0x00, 0x04, 0x31,
  0x00, 0xf8, 0xff, 0x0b, 0xff, 0x0a, 0x0e, 0x02, 0x0a, 0x19, 0x00, 0xf3,
  0x00, 0xe8, 0x10, 0xfe, 0xfd, 0x12, 0x08, 0xfd, 0xfd, 0x11, 0x0f, 0x04,
  0x13, 0x05, 0xff, 0x1d, 0x0e, 0x02, 0x06, 0x09, 0x11, 0xff, 0x0c, 0xff,
  0xfd, 0x08, 0xe2, 0xfd, 0xed, 0x0f, 0xee, 0xfb, 0xfb, 0xe8, 0xf6, 0x0a,
  0x17, 0x19, 0x03, 0x14, 0x0a, 0x07, 0x02, 0x19, 0xfa, 0xe8, 0xf2, 0xfa,
  0xde, 0xf6, 0x15, 0xe7, 0xed, 0x20, 0x00, 0x00, 0x00, 0xf0, 0x2e, 0x1d,
  0xe0, 0x03, 0xd7, 0x15, 0xff, 0xf3, 0xe0, 0xf5, 0xcb, 0x03, 0x17, 0xe6,
  0x1e, 0xdf, 0xbe, 0x09, 0x25, 0x1d, 0xee, 0xeb, 0xcd, 0x14, 0xdd, 0x16,
  0x07, 0xf8, 0x09, 0xce, 0xd5, 0x01, 0x00, 0x00, 0x00, 0x00, 0x02, 0x00,
  0x00, 0x00, 0x80, 0x80, 0x02, 0x00, 0x00, 0x00, 0x80, 0x80, 0x01, 0x00,
  0x00, 0x00, 0x00, 0x02, 0x00, 0x00, 0x00, 0x80, 0x80, 0x02, 0x00, 0x00,
  0x00, 0x80, 0x80, 0x01, 0x00, 0x00, 0x00, 0x00, 0x00, 0x02, 0x00, 0x00,
  0x3a, 0x3f, 0x08, 0x3f, 0xb5, 0xed, 0xfc, 0x11, 0x39, 0x50, 0xf9, 0xdf,
  0x47, 0xee, 0x09, 0xc6, 0x3a, 0x32, 0xd4, 0xea, 0x0e, 0x00, 0xf5, 0x0a,
  0x13, 0x01, 0x18, 0xf6, 0x03, 0x1d, 0xe0, 0xfc, 0xf1, 0xc4, 0xd6, 0x1e,
  0x11, 0x05, 0x34, 0xce, 0xd9, 0xe9, 0x2f, 0x23, 0xfa, 0xf2, 0x41, 0xeb,
  0x48, 0x0f, 0x1d, 0xe4, 0xf9, 0x3a, 0xfe, 0xff, 0x00, 0x25, 0x17, 0x3c,
  0x16, 0x14, 0x0c, 0x29, 0xf7, 0x00, 0x0a, 0xf1, 0x43, 0x1a, 0x03, 0x05,
  0x17, 0xd3, 0xe3, 0xe8, 0xd1, 0x1c, 0xf7, 0x32, 0x09, 0xcf, 0x56, 0xec,
  0xff, 0x0a, 0xfc, 0xd7, 0x2a, 0x22, 0x1c, 0x47, 0x0b, 0xff, 0x00, 0xd8,
  0x33, 0xfa, 0x3b, 0x11, 0x13, 0x17, 0x23, 0x1b, 0x3b, 0x23, 0xb8, 0xec,
  0xf4, 0x1f, 0xa8, 0x2d, 0x2e, 0xff, 0xfb, 0x1d, 0x2e, 0xc2, 0xc8, 0x16,
  0x1c, 0xed, 0x16, 0x00, 0xf7, 0xfd, 0xae, 0xc6, 0x18, 0x21, 0x27, 0xf1,
  0xe4, 0xe9, 0xfd, 0x23, 0x0b, 0xdf, 0x9f, 0xe2, 0x21, 0x10, 0xbd, 0xed,
  0xc6, 0x14, 0xff, 0x47, 0xfb, 0xc3, 0x0e, 0xf7, 0x11, 0xfe, 0x1c, 0xb0,
  0x2d, 0xf9, 0xde, 0xe5, 0x08, 0x01, 0x29, 0x02, 0x23, 0xc8, 0xd7, 0x37,
  0x05, 0x14, 0x30, 0x2e, 0x07, 0x3f, 0xff, 0xe3, 0xe4, 0x3b, 0xd2, 0x1e,
  0xf9, 0xd6, 0x2d, 0x0a, 0xc5, 0xd0, 0xe7, 0xb9, 0xce, 0xdf, 0x23, 0x34,
  0x08, 0x10, 0x17, 0xe7, 0x05, 0xd7, 0x0c, 0xec, 0xe7, 0xeb, 0x56, 0x14,
  0xf4, 0x14, 0x2b, 0x08, 0xc3, 0x30, 0xec, 0xde, 0xcc, 0x1f, 0x21, 0x0a,
  0xe4, 0x03, 0xda, 0xf0, 0x0b, 0xf1, 0x12, 0x1d, 0xf6, 0x16, 0xf6, 0xff,
  0x15, 0x0f, 0xf8, 0x34, 0x20, 0xf6, 0xf9, 0xe0, 0x28, 0xbd, 0xdc, 0x2b,
  0xf8, 0xe9, 0x29, 0xdf, 0x2e, 0x3a, 0xc3, 0x3d, 0x43, 0xe0, 0x02, 0x04,
  0xe2, 0x25, 0xa3, 0xe3, 0x0f, 0x1c, 0x21, 0xf6, 0x03, 0xc0, 0xe1, 0x0a,
  0xfa, 0x10, 0x16, 0x45, 0xff, 0x45, 0x0b, 0x2c, 0xed, 0x16, 0x16, 0xff,
  0xd8, 0xf0, 0x27, 0x14, 0xd8, 0xe3, 0xeb, 0xb6, 0x01, 0xdf, 0x0f, 0xef,
  0xe6, 0xd6, 0xf0, 0xd2, 0x09, 0xea, 0x3f, 0xfe, 0xd6, 0xc9, 0xd0, 0x00,
  0xe8, 0x2d, 0x2c, 0x1b, 0x0b, 0xce, 0x44, 0xfa, 0x37, 0xd0, 0x0b, 0xdb,
  0x22, 0xfe, 0x01, 0xf1, 0x25, 0x16, 0x1d, 0x13, 0x16, 0xec, 0x1b, 0x12,
  0x06, 0xe7, 0x04, 0xfe, 0x15, 0x3a, 0x15, 0x1f, 0x03, 0x0d, 0x2c, 0xba,
  0xf6, 0x5d, 0xb9, 0x14, 0xb0, 0x13, 0xfd, 0x09, 0xd5, 0x27, 0xda, 0xf9,
  0xf2, 0xf8, 0x05, 0xe4, 0xe7, 0x24, 0xe4, 0xff, 0x32, 0xfc, 0xfd, 0xd8,
  0x00, 0xd1, 0x17, 0x2a, 0x0a, 0x23, 0x2f, 0x1e, 0xb9, 0x04, 0x01, 0xe2,
  0xcf, 0x23, 0x08, 0xdf, 0xf9, 0xe2, 0xd0, 0x2f, 0xf6, 0xe8, 0x44, 0x13,
  0x3a, 0xee, 0xda, 0x61, 0xef, 0x0c, 0xd3, 0x0a, 0x1b, 0x02, 0x30, 0x39,
  0x28, 0xe1, 0x1f, 0xf1, 0x22, 0x17, 0xe5, 0xe8, 0x02, 0x15, 0xe5, 0x1b,
  0xde, 0x36, 0xce, 0x2d, 0xd2, 0x44, 0xff, 0x0a, 0xc3, 0xfd, 0xed, 0xc7,
  0x35, 0xfa, 0x38, 0xc5, 0xe0, 0xd0, 0xf2, 0x04, 0xd5, 0x27, 0x20, 0x3c,
  0xd7, 0xba, 0x2e, 0x0b, 0xdb, 0xea, 0x12, 0xfa, 0x28, 0xea, 0x11, 0xf6,
  0x2f, 0xd7, 0x12, 0x03, 0xe5, 0x0f, 0xfa, 0x1e, 0xe4, 0xf9, 0x04, 0x26,
  0x31, 0x14, 0xe4, 0xfb, 0xfe, 0xcb, 0x02, 0xf8, 0x07, 0xe1, 0x12, 0xfc,
  0x21, 0xf6, 0xdb, 0x02, 0xe8, 0xe5, 0xf4, 0xdd, 0xd3, 0xfb, 0xf2, 0x03,
  0x0d, 0xdc, 0xe6, 0x3d, 0x19, 0x27, 0xcf, 0xc1, 0xfd, 0x15, 0x41, 0xf4,
  0xf7, 0xdc, 0x37, 0x07, 0x16, 0x03, 0x00, 0xe9, 0x0f, 0x5c, 0x22, 0x2c,
  0x20, 0xfa, 0xda, 0x4e, 0x1f, 0x05, 0x03, 0x23, 0x10, 0x00, 0x00, 0x00,
  0x6f, 0xe5, 0x53, 0x72, 0x75, 0x0c, 0xe5, 0x42, 0x3e, 0x67, 0xca, 0x0e,
  0xf8, 0x4b, 0xf8, 0x8b, 0x01, 0x00, 0x00, 0x00, 0x00, 0x40, 0x00, 0x00,
  0x00, 0xb3, 0x11, 0x14, 0xcc, 0xf6, 0x0e, 0x24, 0xc4, 0x0f, 0x39, 0xbf,
  0x30, 0xc7, 0x3a, 0x07, 0x0d, 0xfe, 0xc0, 0x04, 0x07, 0x3b, 0x1b, 0xe0,
  0xec, 0x1a, 0x0f, 0x03, 0xd0, 0xf0, 0xe9, 0xd8, 0xcd, 0xf0, 0x0c, 0xc6,
  0xca, 0xd6, 0x1b, 0x30, 0xce, 0x10, 0xc5, 0x39, 0x15, 0x1a, 0xb5, 0x1b,
  0x1e, 0xf3, 0x1d, 0x1a, 0xfb, 0xe0, 0xd3, 0xcd, 0x08, 0xcc, 0x1e, 0xe9,
  0xe5, 0x1b, 0xe4, 0xf2, 0x24, 0x04, 0x00, 0x00, 0x00, 0xaa, 0x2c, 0xf8,
  0x24, 0x01, 0x00, 0x00, 0x00, 0x00, 0x08, 0x07, 0x01, 0x07, 0x07, 0x07,
  0x07, 0x06, 0x0a, 0x07, 0x07, 0x09, 0x07, 0x07, 0x0a, 0x08, 0x00, 0x00,
  0x00, 0x00, 0x00, 0x00, 0x00, 0x00
};